unsigned char models_linear_svc_onnx[] = {
    0x08, 0x0a, 0x12, 0x08, 0x73, 0x6b, 0x6c, 0x32, 0x6f, 0x6e, 0x6e, 0x78,
    0x1a, 0x06, 0x31, 0x2e, 0x31, 0x39, 0x2e, 0x31, 0x22, 0x07, 0x61, 0x69,
    0x2e, 0x6f, 0x6e, 0x6e, 0x78, 0x28, 0x00, 0x32, 0x00, 0x3a, 0xf4, 0x03,
    0x0a, 0x9b, 0x03, 0x0a, 0x01, 0x58, 0x12, 0x05, 0x6c, 0x61, 0x62, 0x65,
    0x6c, 0x12, 0x0d, 0x70, 0x72, 0x6f, 0x62, 0x61, 0x62, 0x69, 0x6c, 0x69,
    0x74, 0x69, 0x65, 0x73, 0x1a, 0x10, 0x4c, 0x69, 0x6e, 0x65, 0x61, 0x72,
    0x43, 0x6c, 0x61, 0x73, 0x73, 0x69, 0x66, 0x69, 0x65, 0x72, 0x22, 0x10,
    0x4c, 0x69, 0x6e, 0x65, 0x61, 0x72, 0x43, 0x6c, 0x61, 0x73, 0x73, 0x69,
    0x66, 0x69, 0x65, 0x72, 0x2a, 0x2a, 0x0a, 0x13, 0x63, 0x6c, 0x61, 0x73,
    0x73, 0x6c, 0x61, 0x62, 0x65, 0x6c, 0x73, 0x5f, 0x73, 0x74, 0x72, 0x69,
    0x6e, 0x67, 0x73, 0x4a, 0x01, 0x62, 0x4a, 0x01, 0x67, 0x4a, 0x01, 0x6f,
    0x4a, 0x01, 0x72, 0x4a, 0x01, 0x77, 0x4a, 0x01, 0x79, 0xa0, 0x01, 0x08,
    0x2a, 0xc5, 0x01, 0x0a, 0x0c, 0x63, 0x6f, 0x65, 0x66, 0x66, 0x69, 0x63,
    0x69, 0x65, 0x6e, 0x74, 0x73, 0x3d, 0x70, 0x60, 0xef, 0xbc, 0x3d, 0x30,
    0x7c, 0x2f, 0xbc, 0x3d, 0x42, 0x95, 0x04, 0xbe, 0x3d, 0x6f, 0x6c, 0x42,
    0x3d, 0x3d, 0xce, 0x84, 0x73, 0x3b, 0x3d, 0x72, 0x71, 0x01, 0x3e, 0x3d,
    0xe9, 0x4a, 0x73, 0xbd, 0x3d, 0xf0, 0xf8, 0xf5, 0xbd, 0x3d, 0xcf, 0x2f,
    0x07, 0x3d, 0x3d, 0x71, 0xa5, 0xf0, 0x3b, 0x3d, 0x5b, 0x1a, 0xc0, 0x3d,
    0x3d, 0xe6, 0x7b, 0xb1, 0xbd, 0x3d, 0xda, 0xaa, 0x09, 0xbd, 0x3d, 0x18,
    0x56, 0xa3, 0x3c, 0x3d, 0x87, 0xe9, 0x2f, 0x3d, 0x3d, 0xd1, 0x14, 0x52,
    0x3d, 0x3d, 0x0d, 0xb2, 0x11, 0x3c, 0x3d, 0x4e, 0x96, 0xa2, 0xbc, 0x3d,
    0x5f, 0x2c, 0x74, 0xbd, 0x3d, 0xf1, 0xa7, 0x3a, 0x3e, 0x3d, 0xf7, 0x7b,
    0xa1, 0xbd, 0x3d, 0x2c, 0x3f, 0xd0, 0xbd, 0x3d, 0xb3, 0x0e, 0x58, 0x3e,
    0x3d, 0x1c, 0xfa, 0x13, 0xbe, 0x3d, 0x66, 0xa1, 0xf4, 0x3c, 0x3d, 0xdd,
    0xb6, 0xb1, 0x3b, 0x3d, 0xf9, 0x65, 0x7c, 0xbc, 0x3d, 0xec, 0xea, 0x7d,
    0x3d, 0x3d, 0xa8, 0xf8, 0x2d, 0xbd, 0x3d, 0x6b, 0x28, 0xef, 0xbd, 0x3d,
    0xf6, 0x14, 0x75, 0xbc, 0x3d, 0x1d, 0x3d, 0x1d, 0xbd, 0x3d, 0xc2, 0xe7,
    0xab, 0x3d, 0x3d, 0x69, 0xdf, 0x3e, 0x3d, 0x3d, 0xcd, 0xd2, 0x24, 0xbe,
    0x3d, 0x32, 0x2e, 0x8b, 0x3d, 0xa0, 0x01, 0x06, 0x2a, 0x2d, 0x0a, 0x0a,
    0x69, 0x6e, 0x74, 0x65, 0x72, 0x63, 0x65, 0x70, 0x74, 0x73, 0x3d, 0x45,
    0x2d, 0x4e, 0xbf, 0x3d, 0x46, 0xb6, 0x5a, 0xbc, 0x3d, 0x4a, 0x80, 0xd4,
    0xbf, 0x3d, 0xf0, 0xec, 0x1f, 0xc0, 0x3d, 0x96, 0xbc, 0x6b, 0xbf, 0x3d,
    0x67, 0x25, 0x14, 0xc0, 0xa0, 0x01, 0x06, 0x2a, 0x12, 0x0a, 0x0b, 0x6d,
    0x75, 0x6c, 0x74, 0x69, 0x5f, 0x63, 0x6c, 0x61, 0x73, 0x73, 0x18, 0x00,
    0xa0, 0x01, 0x02, 0x2a, 0x19, 0x0a, 0x0e, 0x70, 0x6f, 0x73, 0x74, 0x5f,
    0x74, 0x72, 0x61, 0x6e, 0x73, 0x66, 0x6f, 0x72, 0x6d, 0x22, 0x04, 0x4e,
    0x4f, 0x4e, 0x45, 0xa0, 0x01, 0x03, 0x3a, 0x0a, 0x61, 0x69, 0x2e, 0x6f,
    0x6e, 0x6e, 0x78, 0x2e, 0x6d, 0x6c, 0x12, 0x0f, 0x4f, 0x4e, 0x4e, 0x58,
    0x28, 0x4c, 0x69, 0x6e, 0x65, 0x61, 0x72, 0x53, 0x56, 0x43, 0x29, 0x5a,
    0x11, 0x0a, 0x01, 0x58, 0x12, 0x0c, 0x0a, 0x0a, 0x08, 0x01, 0x12, 0x06,
    0x0a, 0x00, 0x0a, 0x02, 0x08, 0x06, 0x62, 0x11, 0x0a, 0x05, 0x6c, 0x61,
    0x62, 0x65, 0x6c, 0x12, 0x08, 0x0a, 0x06, 0x08, 0x08, 0x12, 0x02, 0x0a,
    0x00, 0x62, 0x1d, 0x0a, 0x0d, 0x70, 0x72, 0x6f, 0x62, 0x61, 0x62, 0x69,
    0x6c, 0x69, 0x74, 0x69, 0x65, 0x73, 0x12, 0x0c, 0x0a, 0x0a, 0x08, 0x01,
    0x12, 0x06, 0x0a, 0x00, 0x0a, 0x02, 0x08, 0x06, 0x42, 0x0e, 0x0a, 0x0a,
    0x61, 0x69, 0x2e, 0x6f, 0x6e, 0x6e, 0x78, 0x2e, 0x6d, 0x6c, 0x10, 0x01,
    0x42, 0x04, 0x0a, 0x00, 0x10, 0x15, 0x42, 0x04, 0x0a, 0x00, 0x10, 0x15};
unsigned int models_linear_svc_onnx_len = 564;
unsigned char models_logistic_regression_onnx[] = {
    0x08, 0x0a, 0x12, 0x08, 0x73, 0x6b, 0x6c, 0x32, 0x6f, 0x6e, 0x6e, 0x78,
    0x1a, 0x06, 0x31, 0x2e, 0x31, 0x39, 0x2e, 0x31, 0x22, 0x07, 0x61, 0x69,
    0x2e, 0x6f, 0x6e, 0x6e, 0x78, 0x28, 0x00, 0x32, 0x00, 0x3a, 0x85, 0x06,
    0x0a, 0xa3, 0x03, 0x0a, 0x01, 0x58, 0x12, 0x05, 0x6c, 0x61, 0x62, 0x65,
    0x6c, 0x12, 0x12, 0x70, 0x72, 0x6f, 0x62, 0x61, 0x62, 0x69, 0x6c, 0x69,
    0x74, 0x79, 0x5f, 0x74, 0x65, 0x6e, 0x73, 0x6f, 0x72, 0x1a, 0x10, 0x4c,
    0x69, 0x6e, 0x65, 0x61, 0x72, 0x43, 0x6c, 0x61, 0x73, 0x73, 0x69, 0x66,
    0x69, 0x65, 0x72, 0x22, 0x10, 0x4c, 0x69, 0x6e, 0x65, 0x61, 0x72, 0x43,
    0x6c, 0x61, 0x73, 0x73, 0x69, 0x66, 0x69, 0x65, 0x72, 0x2a, 0x2a, 0x0a,
    0x13, 0x63, 0x6c, 0x61, 0x73, 0x73, 0x6c, 0x61, 0x62, 0x65, 0x6c, 0x73,
    0x5f, 0x73, 0x74, 0x72, 0x69, 0x6e, 0x67, 0x73, 0x4a, 0x01, 0x62, 0x4a,
    0x01, 0x67, 0x4a, 0x01, 0x6f, 0x4a, 0x01, 0x72, 0x4a, 0x01, 0x77, 0x4a,
    0x01, 0x79, 0xa0, 0x01, 0x08, 0x2a, 0xc5, 0x01, 0x0a, 0x0c, 0x63, 0x6f,
    0x65, 0x66, 0x66, 0x69, 0x63, 0x69, 0x65, 0x6e, 0x74, 0x73, 0x3d, 0xff,
    0x58, 0x42, 0x3e, 0x3d, 0xc9, 0x8b, 0x8e, 0xbe, 0x3d, 0xe2, 0x81, 0x20,
    0xbf, 0x3d, 0x90, 0x66, 0x20, 0x3e, 0x3d, 0x3e, 0x62, 0xf6, 0xbd, 0x3d,
    0x8a, 0xdc, 0x59, 0x3e, 0x3d, 0x22, 0xbf, 0x2d, 0xbd, 0x3d, 0x42, 0xed,
    0x2b, 0xbf, 0x3d, 0x8d, 0xb0, 0x5a, 0x3e, 0x3d, 0xef, 0x06, 0x1c, 0xbe,
    0x3d, 0xb1, 0x1b, 0x0f, 0x3e, 0x3d, 0xcd, 0x45, 0xad, 0xbd, 0x3d, 0xfd,
    0xd1, 0x6c, 0xbe, 0x3d, 0x93, 0xce, 0x5e, 0x3e, 0x3d, 0x2c, 0xb2, 0xec,
    0x3e, 0x3d, 0x50, 0xb3, 0x0b, 0x3f, 0x3d, 0x21, 0x41, 0x13, 0xbe, 0x3d,
    0x4c, 0x65, 0x7d, 0x3c, 0x3d, 0x3f, 0x39, 0xd6, 0xbd, 0x3d, 0x47, 0xdb,
    0xa1, 0x3f, 0x3d, 0xc1, 0x15, 0x09, 0xbf, 0x3d, 0xb1, 0x4e, 0x3d, 0xbf,
    0x3d, 0x55, 0x9f, 0x56, 0x3f, 0x3d, 0x33, 0xc0, 0x8a, 0xbd, 0x3d, 0x6e,
    0x05, 0x92, 0x3e, 0x3d, 0x31, 0x1e, 0x0b, 0xbe, 0x3d, 0x88, 0x51, 0x13,
    0xbe, 0x3d, 0xa1, 0x6d, 0xd4, 0x3c, 0x3d, 0x13, 0xc0, 0x9e, 0xbe, 0x3d,
    0xe2, 0x47, 0x5e, 0xbe, 0x3d, 0xed, 0x0a, 0xc6, 0xbd, 0x3d, 0x01, 0xdf,
    0xca, 0xbe, 0x3d, 0xcc, 0x66, 0x21, 0x3f, 0x3d, 0x2f, 0x80, 0x27, 0x3e,
    0x3d, 0x50, 0xd3, 0xce, 0xbe, 0x3d, 0x03, 0x98, 0x10, 0x3e, 0xa0, 0x01,
    0x06, 0x2a, 0x2d, 0x0a, 0x0a, 0x69, 0x6e, 0x74, 0x65, 0x72, 0x63, 0x65,
    0x70, 0x74, 0x73, 0x3d, 0x4d, 0x96, 0xa6, 0x40, 0x3d, 0xe0, 0x9a, 0x0f,
    0x41, 0x3d, 0xbf, 0x3d, 0xcb, 0xc0, 0x3d, 0x67, 0x0a, 0x83, 0xc1, 0x3d,
    0xda, 0x42, 0x01, 0x41, 0x3d, 0x8a, 0x59, 0xf1, 0x3e, 0xa0, 0x01, 0x06,
    0x2a, 0x12, 0x0a, 0x0b, 0x6d, 0x75, 0x6c, 0x74, 0x69, 0x5f, 0x63, 0x6c,
    0x61, 0x73, 0x73, 0x18, 0x01, 0xa0, 0x01, 0x02, 0x2a, 0x1c, 0x0a, 0x0e,
    0x70, 0x6f, 0x73, 0x74, 0x5f, 0x74, 0x72, 0x61, 0x6e, 0x73, 0x66, 0x6f,
    0x72, 0x6d, 0x22, 0x07, 0x53, 0x4f, 0x46, 0x54, 0x4d, 0x41, 0x58, 0xa0,
    0x01, 0x03, 0x3a, 0x0a, 0x61, 0x69, 0x2e, 0x6f, 0x6e, 0x6e, 0x78, 0x2e,
    0x6d, 0x6c, 0x0a, 0x2b, 0x0a, 0x05, 0x6c, 0x61, 0x62, 0x65, 0x6c, 0x12,
    0x0c, 0x6f, 0x75, 0x74, 0x70, 0x75, 0x74, 0x5f, 0x6c, 0x61, 0x62, 0x65,
    0x6c, 0x1a, 0x08, 0x49, 0x64, 0x65, 0x6e, 0x74, 0x69, 0x74, 0x79, 0x22,
    0x08, 0x49, 0x64, 0x65, 0x6e, 0x74, 0x69, 0x74, 0x79, 0x3a, 0x00, 0x0a,
    0x56, 0x0a, 0x12, 0x70, 0x72, 0x6f, 0x62, 0x61, 0x62, 0x69, 0x6c, 0x69,
    0x74, 0x79, 0x5f, 0x74, 0x65, 0x6e, 0x73, 0x6f, 0x72, 0x12, 0x0d, 0x70,
    0x72, 0x6f, 0x62, 0x61, 0x62, 0x69, 0x6c, 0x69, 0x74, 0x69, 0x65, 0x73,
    0x1a, 0x0a, 0x4e, 0x6f, 0x72, 0x6d, 0x61, 0x6c, 0x69, 0x7a, 0x65, 0x72,
    0x22, 0x0a, 0x4e, 0x6f, 0x72, 0x6d, 0x61, 0x6c, 0x69, 0x7a, 0x65, 0x72,
    0x2a, 0x0d, 0x0a, 0x04, 0x6e, 0x6f, 0x72, 0x6d, 0x22, 0x02, 0x4c, 0x31,
    0xa0, 0x01, 0x03, 0x3a, 0x0a, 0x61, 0x69, 0x2e, 0x6f, 0x6e, 0x6e, 0x78,
    0x2e, 0x6d, 0x6c, 0x0a, 0x6b, 0x0a, 0x0d, 0x70, 0x72, 0x6f, 0x62, 0x61,
    0x62, 0x69, 0x6c, 0x69, 0x74, 0x69, 0x65, 0x73, 0x12, 0x12, 0x6f, 0x75,
    0x74, 0x70, 0x75, 0x74, 0x5f, 0x70, 0x72, 0x6f, 0x62, 0x61, 0x62, 0x69,
    0x6c, 0x69, 0x74, 0x79, 0x1a, 0x06, 0x5a, 0x69, 0x70, 0x4d, 0x61, 0x70,
    0x22, 0x06, 0x5a, 0x69, 0x70, 0x4d, 0x61, 0x70, 0x2a, 0x2a, 0x0a, 0x13,
    0x63, 0x6c, 0x61, 0x73, 0x73, 0x6c, 0x61, 0x62, 0x65, 0x6c, 0x73, 0x5f,
    0x73, 0x74, 0x72, 0x69, 0x6e, 0x67, 0x73, 0x4a, 0x01, 0x62, 0x4a, 0x01,
    0x67, 0x4a, 0x01, 0x6f, 0x4a, 0x01, 0x72, 0x4a, 0x01, 0x77, 0x4a, 0x01,
    0x79, 0xa0, 0x01, 0x08, 0x3a, 0x0a, 0x61, 0x69, 0x2e, 0x6f, 0x6e, 0x6e,
    0x78, 0x2e, 0x6d, 0x6c, 0x12, 0x18, 0x4f, 0x4e, 0x4e, 0x58, 0x28, 0x4c,
    0x6f, 0x67, 0x69, 0x73, 0x74, 0x69, 0x63, 0x52, 0x65, 0x67, 0x72, 0x65,
    0x73, 0x73, 0x69, 0x6f, 0x6e, 0x29, 0x5a, 0x11, 0x0a, 0x01, 0x58, 0x12,
    0x0c, 0x0a, 0x0a, 0x08, 0x01, 0x12, 0x06, 0x0a, 0x00, 0x0a, 0x02, 0x08,
    0x06, 0x62, 0x18, 0x0a, 0x0c, 0x6f, 0x75, 0x74, 0x70, 0x75, 0x74, 0x5f,
    0x6c, 0x61, 0x62, 0x65, 0x6c, 0x12, 0x08, 0x0a, 0x06, 0x08, 0x08, 0x12,
    0x02, 0x0a, 0x00, 0x62, 0x24, 0x0a, 0x12, 0x6f, 0x75, 0x74, 0x70, 0x75,
    0x74, 0x5f, 0x70, 0x72, 0x6f, 0x62, 0x61, 0x62, 0x69, 0x6c, 0x69, 0x74,
    0x79, 0x12, 0x0e, 0x22, 0x0c, 0x0a, 0x0a, 0x2a, 0x08, 0x08, 0x08, 0x12,
    0x04, 0x0a, 0x02, 0x08, 0x01, 0x42, 0x0e, 0x0a, 0x0a, 0x61, 0x69, 0x2e,
    0x6f, 0x6e, 0x6e, 0x78, 0x2e, 0x6d, 0x6c, 0x10, 0x01, 0x42, 0x04, 0x0a,
    0x00, 0x10, 0x15};
unsigned int models_logistic_regression_onnx_len = 831;
