unsigned char models_linear_svc_onnx[] = {
    0x08, 0x0a, 0x12, 0x08, 0x73, 0x6b, 0x6c, 0x32, 0x6f, 0x6e, 0x6e, 0x78,
    0x1a, 0x06, 0x31, 0x2e, 0x31, 0x39, 0x2e, 0x31, 0x22, 0x07, 0x61, 0x69,
    0x2e, 0x6f, 0x6e, 0x6e, 0x78, 0x28, 0x00, 0x32, 0x00, 0x3a, 0xf4, 0x03,
    0x0a, 0x9b, 0x03, 0x0a, 0x01, 0x58, 0x12, 0x05, 0x6c, 0x61, 0x62, 0x65,
    0x6c, 0x12, 0x0d, 0x70, 0x72, 0x6f, 0x62, 0x61, 0x62, 0x69, 0x6c, 0x69,
    0x74, 0x69, 0x65, 0x73, 0x1a, 0x10, 0x4c, 0x69, 0x6e, 0x65, 0x61, 0x72,
    0x43, 0x6c, 0x61, 0x73, 0x73, 0x69, 0x66, 0x69, 0x65, 0x72, 0x22, 0x10,
    0x4c, 0x69, 0x6e, 0x65, 0x61, 0x72, 0x43, 0x6c, 0x61, 0x73, 0x73, 0x69,
    0x66, 0x69, 0x65, 0x72, 0x2a, 0x2a, 0x0a, 0x13, 0x63, 0x6c, 0x61, 0x73,
    0x73, 0x6c, 0x61, 0x62, 0x65, 0x6c, 0x73, 0x5f, 0x73, 0x74, 0x72, 0x69,
    0x6e, 0x67, 0x73, 0x4a, 0x01, 0x62, 0x4a, 0x01, 0x67, 0x4a, 0x01, 0x6f,
    0x4a, 0x01, 0x72, 0x4a, 0x01, 0x77, 0x4a, 0x01, 0x79, 0xa0, 0x01, 0x08,
    0x2a, 0xc5, 0x01, 0x0a, 0x0c, 0x63, 0x6f, 0x65, 0x66, 0x66, 0x69, 0x63,
    0x69, 0x65, 0x6e, 0x74, 0x73, 0x3d, 0xbc, 0xe8, 0xee, 0xbc, 0x3d, 0xa2,
    0x7f, 0x43, 0xbc, 0x3d, 0xd6, 0x1d, 0x05, 0xbe, 0x3d, 0x69, 0x66, 0x45,
    0x3d, 0x3d, 0x8d, 0xf1, 0x32, 0x3b, 0x3d, 0xe2, 0xae, 0x02, 0x3e, 0x3d,
    0x20, 0x92, 0x73, 0xbd, 0x3d, 0x29, 0x79, 0xf6, 0xbd, 0x3d, 0x88, 0xb2,
    0x07, 0x3d, 0x3d, 0x57, 0x71, 0xf7, 0x3b, 0x3d, 0xe0, 0x9e, 0xc0, 0x3d,
    0x3d, 0xc3, 0x3c, 0xb3, 0xbd, 0x3d, 0x71, 0x96, 0x09, 0xbd, 0x3d, 0xa3,
    0x3f, 0xa3, 0x3c, 0x3d, 0x23, 0x14, 0x30, 0x3d, 0x3d, 0x9f, 0xba, 0x51,
    0x3d, 0x3d, 0x3d, 0x73, 0x12, 0x3c, 0x3d, 0x22, 0xb9, 0xa2, 0xbc, 0x3d,
    0x96, 0x07, 0x72, 0xbd, 0x3d, 0x6c, 0x55, 0x39, 0x3e, 0x3d, 0x17, 0x50,
    0xa0, 0xbd, 0x3d, 0x22, 0x09, 0xd0, 0xbd, 0x3d, 0x78, 0x29, 0x56, 0x3e,
    0x3d, 0x82, 0x6b, 0x13, 0xbe, 0x3d, 0x14, 0xea, 0xf4, 0x3c, 0x3d, 0x98,
    0xb9, 0xb1, 0x3b, 0x3d, 0x98, 0xc0, 0x7c, 0xbc, 0x3d, 0x73, 0x1f, 0x7d,
    0x3d, 0x3d, 0x86, 0x11, 0x2e, 0xbd, 0x3d, 0xf8, 0xdf, 0xee, 0xbd, 0x3d,
    0x1e, 0xe9, 0x72, 0xbc, 0x3d, 0x36, 0xfb, 0x1d, 0xbd, 0x3d, 0x4c, 0x80,
    0xac, 0x3d, 0x3d, 0x94, 0x6d, 0x40, 0x3d, 0x3d, 0xc1, 0x4a, 0x25, 0xbe,
    0x3d, 0xa1, 0xbb, 0x8b, 0x3d, 0xa0, 0x01, 0x06, 0x2a, 0x2d, 0x0a, 0x0a,
    0x69, 0x6e, 0x74, 0x65, 0x72, 0x63, 0x65, 0x70, 0x74, 0x73, 0x3d, 0x47,
    0xd8, 0x51, 0xbf, 0x3d, 0xff, 0xe5, 0x56, 0xbc, 0x3d, 0x65, 0xad, 0xd4,
    0xbf, 0x3d, 0x45, 0xa4, 0x1d, 0xc0, 0x3d, 0x26, 0x81, 0x6b, 0xbf, 0x3d,
    0x7a, 0x7b, 0x15, 0xc0, 0xa0, 0x01, 0x06, 0x2a, 0x12, 0x0a, 0x0b, 0x6d,
    0x75, 0x6c, 0x74, 0x69, 0x5f, 0x63, 0x6c, 0x61, 0x73, 0x73, 0x18, 0x00,
    0xa0, 0x01, 0x02, 0x2a, 0x19, 0x0a, 0x0e, 0x70, 0x6f, 0x73, 0x74, 0x5f,
    0x74, 0x72, 0x61, 0x6e, 0x73, 0x66, 0x6f, 0x72, 0x6d, 0x22, 0x04, 0x4e,
    0x4f, 0x4e, 0x45, 0xa0, 0x01, 0x03, 0x3a, 0x0a, 0x61, 0x69, 0x2e, 0x6f,
    0x6e, 0x6e, 0x78, 0x2e, 0x6d, 0x6c, 0x12, 0x0f, 0x4f, 0x4e, 0x4e, 0x58,
    0x28, 0x4c, 0x69, 0x6e, 0x65, 0x61, 0x72, 0x53, 0x56, 0x43, 0x29, 0x5a,
    0x11, 0x0a, 0x01, 0x58, 0x12, 0x0c, 0x0a, 0x0a, 0x08, 0x01, 0x12, 0x06,
    0x0a, 0x00, 0x0a, 0x02, 0x08, 0x06, 0x62, 0x11, 0x0a, 0x05, 0x6c, 0x61,
    0x62, 0x65, 0x6c, 0x12, 0x08, 0x0a, 0x06, 0x08, 0x08, 0x12, 0x02, 0x0a,
    0x00, 0x62, 0x1d, 0x0a, 0x0d, 0x70, 0x72, 0x6f, 0x62, 0x61, 0x62, 0x69,
    0x6c, 0x69, 0x74, 0x69, 0x65, 0x73, 0x12, 0x0c, 0x0a, 0x0a, 0x08, 0x01,
    0x12, 0x06, 0x0a, 0x00, 0x0a, 0x02, 0x08, 0x06, 0x42, 0x0e, 0x0a, 0x0a,
    0x61, 0x69, 0x2e, 0x6f, 0x6e, 0x6e, 0x78, 0x2e, 0x6d, 0x6c, 0x10, 0x01,
    0x42, 0x04, 0x0a, 0x00, 0x10, 0x15, 0x42, 0x04, 0x0a, 0x00, 0x10, 0x15};
unsigned int models_linear_svc_onnx_len = 564;
unsigned char models_logistic_regression_onnx[] = {
    0x08, 0x0a, 0x12, 0x08, 0x73, 0x6b, 0x6c, 0x32, 0x6f, 0x6e, 0x6e, 0x78,
    0x1a, 0x06, 0x31, 0x2e, 0x31, 0x39, 0x2e, 0x31, 0x22, 0x07, 0x61, 0x69,
    0x2e, 0x6f, 0x6e, 0x6e, 0x78, 0x28, 0x00, 0x32, 0x00, 0x3a, 0x85, 0x06,
    0x0a, 0xa3, 0x03, 0x0a, 0x01, 0x58, 0x12, 0x05, 0x6c, 0x61, 0x62, 0x65,
    0x6c, 0x12, 0x12, 0x70, 0x72, 0x6f, 0x62, 0x61, 0x62, 0x69, 0x6c, 0x69,
    0x74, 0x79, 0x5f, 0x74, 0x65, 0x6e, 0x73, 0x6f, 0x72, 0x1a, 0x10, 0x4c,
    0x69, 0x6e, 0x65, 0x61, 0x72, 0x43, 0x6c, 0x61, 0x73, 0x73, 0x69, 0x66,
    0x69, 0x65, 0x72, 0x22, 0x10, 0x4c, 0x69, 0x6e, 0x65, 0x61, 0x72, 0x43,
    0x6c, 0x61, 0x73, 0x73, 0x69, 0x66, 0x69, 0x65, 0x72, 0x2a, 0x2a, 0x0a,
    0x13, 0x63, 0x6c, 0x61, 0x73, 0x73, 0x6c, 0x61, 0x62, 0x65, 0x6c, 0x73,
    0x5f, 0x73, 0x74, 0x72, 0x69, 0x6e, 0x67, 0x73, 0x4a, 0x01, 0x62, 0x4a,
    0x01, 0x67, 0x4a, 0x01, 0x6f, 0x4a, 0x01, 0x72, 0x4a, 0x01, 0x77, 0x4a,
    0x01, 0x79, 0xa0, 0x01, 0x08, 0x2a, 0xc5, 0x01, 0x0a, 0x0c, 0x63, 0x6f,
    0x65, 0x66, 0x66, 0x69, 0x63, 0x69, 0x65, 0x6e, 0x74, 0x73, 0x3d, 0x35,
    0x94, 0x3f, 0x3e, 0x3d, 0xa6, 0x8e, 0x8c, 0xbe, 0x3d, 0x11, 0x59, 0x20,
    0xbf, 0x3d, 0x06, 0x5b, 0x2b, 0x3e, 0x3d, 0x75, 0x31, 0x00, 0xbe, 0x3d,
    0x78, 0x72, 0x60, 0x3e, 0x3d, 0x4d, 0x56, 0x23, 0xbd, 0x3d, 0x6d, 0x5d,
    0x2c, 0xbf, 0x3d, 0x00, 0xee, 0x5a, 0x3e, 0x3d, 0xeb, 0x07, 0x1a, 0xbe,
    0x3d, 0x16, 0x80, 0x14, 0x3e, 0x3d, 0x58, 0x90, 0x98, 0xbd, 0x3d, 0xab,
    0xe7, 0x6c, 0xbe, 0x3d, 0x07, 0x76, 0x58, 0x3e, 0x3d, 0xf4, 0x2b, 0xeb,
    0x3e, 0x3d, 0x2b, 0x31, 0x09, 0x3f, 0x3d, 0xe7, 0xb9, 0x15, 0xbe, 0x3d,
    0x23, 0x3a, 0x22, 0x3c, 0x3d, 0xf6, 0xe8, 0xd1, 0xbd, 0x3d, 0xe3, 0x63,
    0xa2, 0x3f, 0x3d, 0x0a, 0xe1, 0x0a, 0xbf, 0x3d, 0x6f, 0xdd, 0x42, 0xbf,
    0x3d, 0x68, 0xb8, 0x57, 0x3f, 0x3d, 0x96, 0x38, 0xa4, 0xbd, 0x3d, 0xa7,
    0x69, 0x91, 0x3e, 0x3d, 0xe5, 0x0b, 0x0a, 0xbe, 0x3d, 0xf8, 0xdd, 0x0f,
    0xbe, 0x3d, 0xdc, 0xd8, 0x02, 0x3d, 0x3d, 0x7f, 0x32, 0xa0, 0xbe, 0x3d,
    0x6f, 0xfe, 0x5b, 0xbe, 0x3d, 0x97, 0x6b, 0xc7, 0xbd, 0x3d, 0x1e, 0x7b,
    0xcb, 0xbe, 0x3d, 0x1f, 0xe0, 0x22, 0x3f, 0x3d, 0xbe, 0xa7, 0x34, 0x3e,
    0x3d, 0xae, 0x88, 0xce, 0xbe, 0x3d, 0xcb, 0xcc, 0x0f, 0x3e, 0xa0, 0x01,
    0x06, 0x2a, 0x2d, 0x0a, 0x0a, 0x69, 0x6e, 0x74, 0x65, 0x72, 0x63, 0x65,
    0x70, 0x74, 0x73, 0x3d, 0x2f, 0xd9, 0xa0, 0x40, 0x3d, 0x03, 0xaf, 0x0a,
    0x41, 0x3d, 0x3d, 0x5b, 0xb9, 0xc0, 0x3d, 0xfb, 0x15, 0x80, 0xc1, 0x3d,
    0x5e, 0x51, 0xfe, 0x40, 0x3d, 0x69, 0x52, 0x25, 0x3e, 0xa0, 0x01, 0x06,
    0x2a, 0x12, 0x0a, 0x0b, 0x6d, 0x75, 0x6c, 0x74, 0x69, 0x5f, 0x63, 0x6c,
    0x61, 0x73, 0x73, 0x18, 0x01, 0xa0, 0x01, 0x02, 0x2a, 0x1c, 0x0a, 0x0e,
    0x70, 0x6f, 0x73, 0x74, 0x5f, 0x74, 0x72, 0x61, 0x6e, 0x73, 0x66, 0x6f,
    0x72, 0x6d, 0x22, 0x07, 0x53, 0x4f, 0x46, 0x54, 0x4d, 0x41, 0x58, 0xa0,
    0x01, 0x03, 0x3a, 0x0a, 0x61, 0x69, 0x2e, 0x6f, 0x6e, 0x6e, 0x78, 0x2e,
    0x6d, 0x6c, 0x0a, 0x2b, 0x0a, 0x05, 0x6c, 0x61, 0x62, 0x65, 0x6c, 0x12,
    0x0c, 0x6f, 0x75, 0x74, 0x70, 0x75, 0x74, 0x5f, 0x6c, 0x61, 0x62, 0x65,
    0x6c, 0x1a, 0x08, 0x49, 0x64, 0x65, 0x6e, 0x74, 0x69, 0x74, 0x79, 0x22,
    0x08, 0x49, 0x64, 0x65, 0x6e, 0x74, 0x69, 0x74, 0x79, 0x3a, 0x00, 0x0a,
    0x56, 0x0a, 0x12, 0x70, 0x72, 0x6f, 0x62, 0x61, 0x62, 0x69, 0x6c, 0x69,
    0x74, 0x79, 0x5f, 0x74, 0x65, 0x6e, 0x73, 0x6f, 0x72, 0x12, 0x0d, 0x70,
    0x72, 0x6f, 0x62, 0x61, 0x62, 0x69, 0x6c, 0x69, 0x74, 0x69, 0x65, 0x73,
    0x1a, 0x0a, 0x4e, 0x6f, 0x72, 0x6d, 0x61, 0x6c, 0x69, 0x7a, 0x65, 0x72,
    0x22, 0x0a, 0x4e, 0x6f, 0x72, 0x6d, 0x61, 0x6c, 0x69, 0x7a, 0x65, 0x72,
    0x2a, 0x0d, 0x0a, 0x04, 0x6e, 0x6f, 0x72, 0x6d, 0x22, 0x02, 0x4c, 0x31,
    0xa0, 0x01, 0x03, 0x3a, 0x0a, 0x61, 0x69, 0x2e, 0x6f, 0x6e, 0x6e, 0x78,
    0x2e, 0x6d, 0x6c, 0x0a, 0x6b, 0x0a, 0x0d, 0x70, 0x72, 0x6f, 0x62, 0x61,
    0x62, 0x69, 0x6c, 0x69, 0x74, 0x69, 0x65, 0x73, 0x12, 0x12, 0x6f, 0x75,
    0x74, 0x70, 0x75, 0x74, 0x5f, 0x70, 0x72, 0x6f, 0x62, 0x61, 0x62, 0x69,
    0x6c, 0x69, 0x74, 0x79, 0x1a, 0x06, 0x5a, 0x69, 0x70, 0x4d, 0x61, 0x70,
    0x22, 0x06, 0x5a, 0x69, 0x70, 0x4d, 0x61, 0x70, 0x2a, 0x2a, 0x0a, 0x13,
    0x63, 0x6c, 0x61, 0x73, 0x73, 0x6c, 0x61, 0x62, 0x65, 0x6c, 0x73, 0x5f,
    0x73, 0x74, 0x72, 0x69, 0x6e, 0x67, 0x73, 0x4a, 0x01, 0x62, 0x4a, 0x01,
    0x67, 0x4a, 0x01, 0x6f, 0x4a, 0x01, 0x72, 0x4a, 0x01, 0x77, 0x4a, 0x01,
    0x79, 0xa0, 0x01, 0x08, 0x3a, 0x0a, 0x61, 0x69, 0x2e, 0x6f, 0x6e, 0x6e,
    0x78, 0x2e, 0x6d, 0x6c, 0x12, 0x18, 0x4f, 0x4e, 0x4e, 0x58, 0x28, 0x4c,
    0x6f, 0x67, 0x69, 0x73, 0x74, 0x69, 0x63, 0x52, 0x65, 0x67, 0x72, 0x65,
    0x73, 0x73, 0x69, 0x6f, 0x6e, 0x29, 0x5a, 0x11, 0x0a, 0x01, 0x58, 0x12,
    0x0c, 0x0a, 0x0a, 0x08, 0x01, 0x12, 0x06, 0x0a, 0x00, 0x0a, 0x02, 0x08,
    0x06, 0x62, 0x18, 0x0a, 0x0c, 0x6f, 0x75, 0x74, 0x70, 0x75, 0x74, 0x5f,
    0x6c, 0x61, 0x62, 0x65, 0x6c, 0x12, 0x08, 0x0a, 0x06, 0x08, 0x08, 0x12,
    0x02, 0x0a, 0x00, 0x62, 0x24, 0x0a, 0x12, 0x6f, 0x75, 0x74, 0x70, 0x75,
    0x74, 0x5f, 0x70, 0x72, 0x6f, 0x62, 0x61, 0x62, 0x69, 0x6c, 0x69, 0x74,
    0x79, 0x12, 0x0e, 0x22, 0x0c, 0x0a, 0x0a, 0x2a, 0x08, 0x08, 0x08, 0x12,
    0x04, 0x0a, 0x02, 0x08, 0x01, 0x42, 0x0e, 0x0a, 0x0a, 0x61, 0x69, 0x2e,
    0x6f, 0x6e, 0x6e, 0x78, 0x2e, 0x6d, 0x6c, 0x10, 0x01, 0x42, 0x04, 0x0a,
    0x00, 0x10, 0x15};
unsigned int models_logistic_regression_onnx_len = 831;
